/* SPDX-License-Identifier: GPL-2.0 */
/*
 * Copyright (c) 2015 MediaTek Inc.
 */

const unsigned char fd_kernel_bias_loop29_1_frame01[] = {
0xfe, 0x01, 0x03, 0xfc, 0x00, 0x00, 0x00, 0x00, 0x01, 0xfc, 0x03, 0x01, 0x00, 0x00, 0x00, 0x00,
0xe4, 0xf6, 0x07, 0xff, 0x00, 0x00, 0x00, 0x00, 0xe6, 0xf6, 0x08, 0xff, 0x00, 0x00, 0x00, 0x00,
0xef, 0x02, 0xf9, 0x05, 0x00, 0x00, 0x00, 0x00, 0xf1, 0xff, 0xf4, 0x0c, 0x00, 0x00, 0x00, 0x00,
0x22, 0x0e, 0xf9, 0xf9, 0x00, 0x00, 0x00, 0x00, 0x21, 0x0b, 0xfd, 0xf8, 0x00, 0x00, 0x00, 0x00,
0xf0, 0x06, 0xff, 0xf9, 0x00, 0x00, 0x00, 0x00, 0xec, 0xfb, 0x03, 0x00, 0x00, 0x00, 0x00, 0x00,
0xe2, 0x05, 0xf9, 0x02, 0x00, 0x00, 0x00, 0x00, 0xdc, 0x08, 0xfb, 0xfd, 0x00, 0x00, 0x00, 0x00,
0x03, 0xeb, 0x14, 0xfe, 0x00, 0x00, 0x00, 0x00, 0x03, 0xeb, 0x15, 0xfd, 0x00, 0x00, 0x00, 0x00,
0x0a, 0x09, 0xf2, 0x05, 0x00, 0x00, 0x00, 0x00, 0x10, 0x0b, 0xf0, 0x06, 0x00, 0x00, 0x00, 0x00,
0xe5, 0xfe, 0xfe, 0x01, 0x00, 0x00, 0x00, 0x00, 0xe1, 0xfe, 0x01, 0x00, 0x00, 0x00, 0x00, 0x00,
0xf4, 0xfc, 0x06, 0xfd, 0x00, 0x00, 0x00, 0x00, 0xf5, 0x02, 0x02, 0xfb, 0x00, 0x00, 0x00, 0x00,
0x0e, 0x03, 0xfe, 0xfe, 0x00, 0x00, 0x00, 0x00, 0x20, 0x01, 0xfe, 0x00, 0x00, 0x00, 0x00, 0x00,
0xec, 0x0b, 0xea, 0x0a, 0x00, 0x00, 0x00, 0x00, 0xf1, 0x08, 0xeb, 0x0b, 0x00, 0x00, 0x00, 0x00,
0xf5, 0x40, 0xbe, 0x0a, 0x00, 0x00, 0x00, 0x00, 0xf6, 0x3a, 0xc9, 0x05, 0x00, 0x00, 0x00, 0x00,
0xfe, 0xff, 0x0f, 0xf3, 0x00, 0x00, 0x00, 0x00, 0xfe, 0x01, 0x0a, 0xf7, 0x00, 0x00, 0x00, 0x00,
0xe6, 0x06, 0x00, 0xfb, 0x00, 0x00, 0x00, 0x00, 0xea, 0x05, 0x02, 0xf8, 0x00, 0x00, 0x00, 0x00,
0xe1, 0x0b, 0xfa, 0xfc, 0x00, 0x00, 0x00, 0x00, 0xe1, 0x0b, 0xfd, 0xf9, 0x00, 0x00, 0x00, 0x00,
0xdc, 0x01, 0x02, 0xfc, 0x00, 0x00, 0x00, 0x00, 0xf2, 0xff, 0x00, 0x01, 0x00, 0x00, 0x00, 0x00,
0xf9, 0xce, 0xda, 0x61, 0x00, 0x00, 0x00, 0x00, 0xfa, 0xcf, 0xd6, 0x63, 0x00, 0x00, 0x00, 0x00,
0x1d, 0x05, 0xfd, 0xfd, 0x00, 0x00, 0x00, 0x00, 0x09, 0x06, 0xfd, 0xfd, 0x00, 0x00, 0x00, 0x00,
0xc1, 0xff, 0xfc, 0x05, 0x00, 0x00, 0x00, 0x00, 0x1a, 0x03, 0xf7, 0x07, 0x00, 0x00, 0x00, 0x00,
0xfc, 0x01, 0x0b, 0xf3, 0x00, 0x00, 0x00, 0x00, 0xeb, 0x00, 0x00, 0xff, 0x00, 0x00, 0x00, 0x00,
0xe8, 0x00, 0xfd, 0x04, 0x00, 0x00, 0x00, 0x00, 0xe9, 0xfd, 0x00, 0x03, 0x00, 0x00, 0x00, 0x00,
0xf4, 0x03, 0xfb, 0x00, 0x00, 0x00, 0x00, 0x00, 0xf0, 0x03, 0xfc, 0xff, 0x00, 0x00, 0x00, 0x00,
0xe9, 0xfb, 0x02, 0x02, 0x00, 0x00, 0x00, 0x00, 0xee, 0xfe, 0xff, 0x03, 0x00, 0x00, 0x00, 0x00,
0xe6, 0xfe, 0x00, 0x02, 0x00, 0x00, 0x00, 0x00, 0x06, 0xfc, 0xff, 0x06, 0x00, 0x00, 0x00, 0x00,
0xd1, 0xf9, 0x06, 0xff, 0x00, 0x00, 0x00, 0x00, 0xec, 0xff, 0x01, 0x00, 0x00, 0x00, 0x00, 0x00,
0x0c, 0x09, 0x09, 0xee, 0x00, 0x00, 0x00, 0x00, 0x08, 0x07, 0x05, 0xf5, 0x00, 0x00, 0x00, 0x00,
0x0d, 0xfa, 0x05, 0x00, 0x00, 0x00, 0x00, 0x00, 0x0d, 0xf7, 0x05, 0x02, 0x00, 0x00, 0x00, 0x00,
0x16, 0xfa, 0x07, 0xff, 0x00, 0x00, 0x00, 0x00, 0x15, 0xfa, 0x0b, 0xfc, 0x00, 0x00, 0x00, 0x00,
0x08, 0x05, 0x00, 0xfc, 0x00, 0x00, 0x00, 0x00, 0x06, 0x06, 0xff, 0xfc, 0x00, 0x00, 0x00, 0x00,
0xdb, 0x0b, 0xf8, 0xfd, 0x00, 0x00, 0x00, 0x00, 0xde, 0x15, 0xf5, 0xf7, 0x00, 0x00, 0x00, 0x00,
0xf7, 0x05, 0xfe, 0xfc, 0x00, 0x00, 0x00, 0x00, 0xd5, 0x01, 0xff, 0x00, 0x00, 0x00, 0x00, 0x00,
0xfe, 0x04, 0x05, 0xf8, 0x00, 0x00, 0x00, 0x00, 0xfc, 0xfd, 0x07, 0xfb, 0x00, 0x00, 0x00, 0x00,
0xd9, 0xfb, 0x04, 0xfe, 0x00, 0x00, 0x00, 0x00, 0xdb, 0xf9, 0x06, 0xfe, 0x00, 0x00, 0x00, 0x00,
0x07, 0x00, 0xfe, 0x02, 0x00, 0x00, 0x00, 0x00, 0x08, 0x01, 0xfc, 0x02, 0x00, 0x00, 0x00, 0x00,
0x1d, 0x0f, 0xf8, 0xf9, 0x00, 0x00, 0x00, 0x00, 0x1d, 0x0c, 0xfc, 0xf9, 0x00, 0x00, 0x00, 0x00,
0xec, 0x03, 0x01, 0xfa, 0x00, 0x00, 0x00, 0x00, 0xe3, 0xfd, 0x01, 0xff, 0x00, 0x00, 0x00, 0x00,
0x20, 0x0a, 0xf2, 0x05, 0x00, 0x00, 0x00, 0x00, 0x23, 0x0a, 0xf7, 0x00, 0x00, 0x00, 0x00, 0x00,
0x03, 0xed, 0x14, 0xfd, 0x00, 0x00, 0x00, 0x00, 0x01, 0xed, 0x14, 0xfd, 0x00, 0x00, 0x00, 0x00,
0x10, 0x09, 0xf1, 0x06, 0x00, 0x00, 0x00, 0x00, 0x04, 0x0a, 0xef, 0x07, 0x00, 0x00, 0x00, 0x00,
0xdb, 0xff, 0xfc, 0x04, 0x00, 0x00, 0x00, 0x00, 0xe7, 0xff, 0x00, 0x00, 0x00, 0x00, 0x00, 0x00,
0xf7, 0xfc, 0x06, 0xfc, 0x00, 0x00, 0x00, 0x00, 0xf7, 0xff, 0x02, 0xfd, 0x00, 0x00, 0x00, 0x00,
0x04, 0x03, 0xfe, 0xfe, 0x00, 0x00, 0x00, 0x00, 0x0f, 0x02, 0xfe, 0xff, 0x00, 0x00, 0x00, 0x00,
0xf1, 0x0a, 0xeb, 0x0a, 0x00, 0x00, 0x00, 0x00, 0xf2, 0x09, 0xed, 0x0a, 0x00, 0x00, 0x00, 0x00,
0xf1, 0x3f, 0xbf, 0x0b, 0x00, 0x00, 0x00, 0x00, 0xf7, 0x39, 0xca, 0x06, 0x00, 0x00, 0x00, 0x00,
0xe2, 0xfc, 0x0d, 0xf7, 0x00, 0x00, 0x00, 0x00, 0xdf, 0x00, 0x0a, 0xf8, 0x00, 0x00, 0x00, 0x00,
0xe2, 0x05, 0x05, 0xf6, 0x00, 0x00, 0x00, 0x00, 0xe0, 0x05, 0x08, 0xf3, 0x00, 0x00, 0x00, 0x00,
0xf1, 0x0c, 0xf9, 0xfb, 0x00, 0x00, 0x00, 0x00, 0xec, 0x0a, 0xfd, 0xf9, 0x00, 0x00, 0x00, 0x00,
0xd5, 0x00, 0x02, 0xfe, 0x00, 0x00, 0x00, 0x00, 0xf1, 0xff, 0xff, 0x02, 0x00, 0x00, 0x00, 0x00,
0xfc, 0xd0, 0xd9, 0x60, 0x00, 0x00, 0x00, 0x00, 0xfb, 0xd0, 0xd6, 0x63, 0x00, 0x00, 0x00, 0x00,
0xff, 0x06, 0xfb, 0xff, 0x00, 0x00, 0x00, 0x00, 0x17, 0x07, 0xfc, 0xfd, 0x00, 0x00, 0x00, 0x00,
0xb7, 0xfe, 0xfc, 0x06, 0x00, 0x00, 0x00, 0x00, 0x1a, 0x02, 0xf7, 0x08, 0x00, 0x00, 0x00, 0x00,
0xef, 0x03, 0x08, 0xf3, 0x00, 0x00, 0x00, 0x00, 0xfb, 0x00, 0x01, 0xff, 0x00, 0x00, 0x00, 0x00,
0x19, 0xfe, 0xfd, 0x05, 0x00, 0x00, 0x00, 0x00, 0x1e, 0xfd, 0x02, 0x02, 0x00, 0x00, 0x00, 0x00,
0x03, 0xff, 0xfc, 0x05, 0x00, 0x00, 0x00, 0x00, 0xf1, 0x03, 0xfc, 0x00, 0x00, 0x00, 0x00, 0x00,
0xed, 0xfe, 0x00, 0x01, 0x00, 0x00, 0x00, 0x00, 0xe8, 0xff, 0x01, 0x00, 0x00, 0x00, 0x00, 0x00,
0x05, 0xfe, 0x01, 0x02, 0x00, 0x00, 0x00, 0x00, 0xe9, 0x01, 0xfe, 0x03, 0x00, 0x00, 0x00, 0x00,
0xe6, 0xfb, 0x02, 0x02, 0x00, 0x00, 0x00, 0x00, 0xf1, 0xfa, 0xff, 0x07, 0x00, 0x00, 0x00, 0x00,
0x11, 0x0a, 0x0c, 0xec, 0x00, 0x00, 0x00, 0x00, 0xe2, 0x09, 0x05, 0xf4, 0x00, 0x00, 0x00, 0x00,
0x0f, 0xf9, 0x03, 0x03, 0x00, 0x00, 0x00, 0x00, 0x17, 0xf9, 0x03, 0x03, 0x00, 0x00, 0x00, 0x00,
0xe1, 0xf8, 0x07, 0x00, 0x00, 0x00, 0x00, 0x00, 0xec, 0xf7, 0x0a, 0xfe, 0x00, 0x00, 0x00, 0x00,
0xfb, 0x09, 0xfa, 0xfe, 0x00, 0x00, 0x00, 0x00, 0x00, 0x08, 0xfc, 0xfd, 0x00, 0x00, 0x00, 0x00,
0xe1, 0x0a, 0xf8, 0xff, 0x00, 0x00, 0x00, 0x00, 0xdc, 0x14, 0xf6, 0xf7, 0x00, 0x00, 0x00, 0x00,
0xf3, 0x06, 0xfe, 0xfc, 0x00, 0x00, 0x00, 0x00, 0xdd, 0x01, 0xff, 0x00, 0x00, 0x00, 0x00, 0x00,
0xfc, 0x01, 0x05, 0xfa, 0x00, 0x00, 0x00, 0x00, 0x01, 0x02, 0x01, 0xfc, 0x00, 0x00, 0x00, 0x00,
0xd8, 0xf8, 0x07, 0xff, 0x00, 0x00, 0x00, 0x00, 0xd7, 0xf6, 0x09, 0xfe, 0x00, 0x00, 0x00, 0x00,
0x17, 0x09, 0xf4, 0x03, 0x00, 0x00, 0x00, 0x00, 0x21, 0x05, 0xf0, 0x0b, 0x00, 0x00, 0x00, 0x00,
0x19, 0x07, 0xfb, 0xff, 0x00, 0x00, 0x00, 0x00, 0x16, 0x05, 0x00, 0xfd, 0x00, 0x00, 0x00, 0x00,
0xf3, 0x03, 0x02, 0xfb, 0x00, 0x00, 0x00, 0x00, 0xf1, 0xf9, 0x04, 0x01, 0x00, 0x00, 0x00, 0x00,
0xe2, 0x04, 0xfa, 0x02, 0x00, 0x00, 0x00, 0x00, 0xe3, 0x07, 0xfb, 0xfe, 0x00, 0x00, 0x00, 0x00,
0x01, 0xee, 0x11, 0x00, 0x00, 0x00, 0x00, 0x00, 0xff, 0xed, 0x10, 0x00, 0x00, 0x00, 0x00, 0x00,
0x05, 0x08, 0xf1, 0x07, 0x00, 0x00, 0x00, 0x00, 0x15, 0x09, 0xee, 0x08, 0x00, 0x00, 0x00, 0x00,
0xe7, 0xfe, 0xfe, 0x03, 0x00, 0x00, 0x00, 0x00, 0xde, 0xfd, 0x01, 0x01, 0x00, 0x00, 0x00, 0x00,
0xfb, 0xfe, 0x05, 0xfc, 0x00, 0x00, 0x00, 0x00, 0xfd, 0x03, 0x03, 0xf9, 0x00, 0x00, 0x00, 0x00,
0x1e, 0x04, 0xfe, 0xfe, 0x00, 0x00, 0x00, 0x00, 0x38, 0x01, 0xff, 0xff, 0x00, 0x00, 0x00, 0x00,
0xef, 0x07, 0xec, 0x0b, 0x00, 0x00, 0x00, 0x00, 0xed, 0x06, 0xed, 0x0a, 0x00, 0x00, 0x00, 0x00,
0x01, 0x3d, 0xc1, 0x0b, 0x00, 0x00, 0x00, 0x00, 0xef, 0x37, 0xca, 0x09, 0x00, 0x00, 0x00, 0x00,
0xff, 0x00, 0x10, 0xf2, 0x00, 0x00, 0x00, 0x00, 0xfd, 0x01, 0x0b, 0xf6, 0x00, 0x00, 0x00, 0x00,
0xe8, 0x03, 0x02, 0xfc, 0x00, 0x00, 0x00, 0x00, 0xea, 0x02, 0x03, 0xfa, 0x00, 0x00, 0x00, 0x00,
0x13, 0x0c, 0xf9, 0xfb, 0x00, 0x00, 0x00, 0x00, 0x1f, 0x0b, 0xfc, 0xfa, 0x00, 0x00, 0x00, 0x00,
0x12, 0xff, 0x05, 0xfc, 0x00, 0x00, 0x00, 0x00, 0xdc, 0xfe, 0x00, 0x02, 0x00, 0x00, 0x00, 0x00,
0xf9, 0xd2, 0xdb, 0x5b, 0x00, 0x00, 0x00, 0x00, 0xff, 0xd2, 0xd8, 0x5d, 0x00, 0x00, 0x00, 0x00,
0x12, 0x07, 0xfa, 0xff, 0x00, 0x00, 0x00, 0x00, 0x10, 0x07, 0xfc, 0xfe, 0x00, 0x00, 0x00, 0x00,
0x05, 0xfd, 0xfd, 0x06, 0x00, 0x00, 0x00, 0x00, 0x06, 0x01, 0xf8, 0x07, 0x00, 0x00, 0x00, 0x00,
0xf8, 0x02, 0x07, 0xf6, 0x00, 0x00, 0x00, 0x00, 0xeb, 0x00, 0xff, 0x00, 0x00, 0x00, 0x00, 0x00,
0xf6, 0xfe, 0xff, 0x04, 0x00, 0x00, 0x00, 0x00, 0xf5, 0xfc, 0x02, 0x01, 0x00, 0x00, 0x00, 0x00,
0xf0, 0x01, 0xfc, 0x03, 0x00, 0x00, 0x00, 0x00, 0xf0, 0x01, 0xff, 0x00, 0x00, 0x00, 0x00, 0x00,
0x12, 0x06, 0x00, 0xfb, 0x00, 0x00, 0x00, 0x00, 0x0a, 0x05, 0x00, 0xfa, 0x00, 0x00, 0x00, 0x00,
0xed, 0xfc, 0x00, 0x04, 0x00, 0x00, 0x00, 0x00, 0x04, 0xfa, 0x01, 0x06, 0x00, 0x00, 0x00, 0x00,
0xd3, 0xf9, 0x06, 0xff, 0x00, 0x00, 0x00, 0x00, 0xfe, 0xfb, 0x01, 0x03, 0x00, 0x00, 0x00, 0x00,
0x04, 0x09, 0x08, 0xf0, 0x00, 0x00, 0x00, 0x00, 0x07, 0x08, 0x04, 0xf5, 0x00, 0x00, 0x00, 0x00,
0x03, 0xf9, 0x04, 0x02, 0x00, 0x00, 0x00, 0x00, 0xf5, 0xf8, 0x05, 0x01, 0x00, 0x00, 0x00, 0x00,
0x09, 0xfa, 0x07, 0x00, 0x00, 0x00, 0x00, 0x00, 0x08, 0xfa, 0x09, 0xfd, 0x00, 0x00, 0x00, 0x00,
0xfd, 0x05, 0x00, 0xfc, 0x00, 0x00, 0x00, 0x00, 0xfa, 0x07, 0xfe, 0xfa, 0x00, 0x00, 0x00, 0x00,
0xe5, 0x09, 0xfa, 0xfd, 0x00, 0x00, 0x00, 0x00, 0xe5, 0x12, 0xf7, 0xf8, 0x00, 0x00, 0x00, 0x00,
0xf8, 0x01, 0xff, 0x00, 0x00, 0x00, 0x00, 0x00, 0xc5, 0x00, 0xfe, 0x01, 0x00, 0x00, 0x00, 0x00,
0xfe, 0x05, 0x0a, 0xf2, 0x00, 0x00, 0x00, 0x00, 0x00, 0x00, 0x0b, 0xf6, 0x00, 0x00, 0x00, 0x00,
0xdb, 0xfa, 0x05, 0xff, 0x00, 0x00, 0x00, 0x00, 0xd9, 0xfa, 0x07, 0xfd, 0x00, 0x00, 0x00, 0x00,
0xe3, 0x02, 0xfb, 0x04, 0x00, 0x00, 0x00, 0x00, 0xe0, 0x03, 0xf8, 0x05, 0x00, 0x00, 0x00, 0x00,
0x11, 0x09, 0xfb, 0xfd, 0x00, 0x00, 0x00, 0x00, 0x0e, 0x05, 0x00, 0xfc, 0x00, 0x00, 0x00, 0x00,
0xf1, 0x02, 0x01, 0xfc, 0x00, 0x00, 0x00, 0x00, 0xef, 0xfc, 0x03, 0x00, 0x00, 0x00, 0x00, 0x00,
0xda, 0x08, 0xf4, 0x04, 0x00, 0x00, 0x00, 0x00, 0xe3, 0x08, 0xf7, 0x01, 0x00, 0x00, 0x00, 0x00,
0x00, 0xee, 0x10, 0x00, 0x00, 0x00, 0x00, 0x00, 0xfe, 0xed, 0x10, 0x00, 0x00, 0x00, 0x00, 0x00,
0x15, 0x09, 0xf2, 0x05, 0x00, 0x00, 0x00, 0x00, 0x13, 0x09, 0xee, 0x09, 0x00, 0x00, 0x00, 0x00,
0xe6, 0xff, 0xfb, 0x05, 0x00, 0x00, 0x00, 0x00, 0xe9, 0xfe, 0xff, 0x02, 0x00, 0x00, 0x00, 0x00,
0xef, 0xfe, 0x06, 0xfb, 0x00, 0x00, 0x00, 0x00, 0xed, 0x02, 0x02, 0xfb, 0x00, 0x00, 0x00, 0x00,
0x1a, 0x03, 0xff, 0xfe, 0x00, 0x00, 0x00, 0x00, 0x2e, 0x00, 0x00, 0x00, 0x00, 0x00, 0x00, 0x00,
0xf9, 0x08, 0xeb, 0x0b, 0x00, 0x00, 0x00, 0x00, 0xf5, 0x08, 0xed, 0x09, 0x00, 0x00, 0x00, 0x00,
0xfe, 0x3c, 0xc0, 0x0d, 0x00, 0x00, 0x00, 0x00, 0xf5, 0x36, 0xc9, 0x0b, 0x00, 0x00, 0x00, 0x00,
0xf8, 0xfe, 0x10, 0xf4, 0x00, 0x00, 0x00, 0x00, 0xf6, 0x01, 0x0a, 0xf6, 0x00, 0x00, 0x00, 0x00,
0xe9, 0x02, 0x06, 0xfa, 0x00, 0x00, 0x00, 0x00, 0xe8, 0x00, 0x09, 0xf7, 0x00, 0x00, 0x00, 0x00,
0x1d, 0x0d, 0xf9, 0xfa, 0x00, 0x00, 0x00, 0x00, 0x23, 0x0a, 0xfe, 0xf8, 0x00, 0x00, 0x00, 0x00,
0x16, 0xfd, 0x05, 0xfe, 0x00, 0x00, 0x00, 0x00, 0xe0, 0xfe, 0x00, 0x02, 0x00, 0x00, 0x00, 0x00,
0xfb, 0xd3, 0xda, 0x5b, 0x00, 0x00, 0x00, 0x00, 0xfd, 0xd2, 0xd7, 0x5e, 0x00, 0x00, 0x00, 0x00,
0x00, 0x09, 0xf8, 0x00, 0x00, 0x00, 0x00, 0x00, 0x21, 0x09, 0xfb, 0xfc, 0x00, 0x00, 0x00, 0x00,
0x03, 0xfe, 0xfa, 0x08, 0x00, 0x00, 0x00, 0x00, 0x08, 0x01, 0xf8, 0x07, 0x00, 0x00, 0x00, 0x00,
0xf4, 0x04, 0x03, 0xf8, 0x00, 0x00, 0x00, 0x00, 0xfb, 0x00, 0xff, 0x01, 0x00, 0x00, 0x00, 0x00,
0x0e, 0xfc, 0x00, 0x05, 0x00, 0x00, 0x00, 0x00, 0x12, 0xfa, 0x03, 0x03, 0x00, 0x00, 0x00, 0x00,
0xfa, 0x00, 0xfb, 0x05, 0x00, 0x00, 0x00, 0x00, 0xee, 0x00, 0xfe, 0x01, 0x00, 0x00, 0x00, 0x00,
0x11, 0x01, 0x02, 0xfe, 0x00, 0x00, 0x00, 0x00, 0x04, 0xfd, 0x03, 0xff, 0x00, 0x00, 0x00, 0x00,
0x06, 0xfd, 0x01, 0x02, 0x00, 0x00, 0x00, 0x00, 0xef, 0x00, 0xfe, 0x02, 0x00, 0x00, 0x00, 0x00,
0xe0, 0xff, 0xfe, 0x02, 0x00, 0x00, 0x00, 0x00, 0xfe, 0xfb, 0xfc, 0x09, 0x00, 0x00, 0x00, 0x00,
0x08, 0x09, 0x0a, 0xee, 0x00, 0x00, 0x00, 0x00, 0xe6, 0x08, 0x05, 0xf4, 0x00, 0x00, 0x00, 0x00,
0x02, 0xfc, 0x02, 0x02, 0x00, 0x00, 0x00, 0x00, 0xfc, 0xfc, 0x02, 0x02, 0x00, 0x00, 0x00, 0x00,
0xea, 0xfa, 0x07, 0xff, 0x00, 0x00, 0x00, 0x00, 0xf4, 0xf9, 0x09, 0xfe, 0x00, 0x00, 0x00, 0x00,
0xbd, 0x04, 0xfc, 0x01, 0x00, 0x00, 0x00, 0x00, 0xc8, 0x03, 0xfc, 0x01, 0x00, 0x00, 0x00, 0x00,
0xe3, 0x06, 0xfc, 0xfd, 0x00, 0x00, 0x00, 0x00, 0xdc, 0x12, 0xf9, 0xf6, 0x00, 0x00, 0x00, 0x00,
0xfa, 0x03, 0xfe, 0x00, 0x00, 0x00, 0x00, 0x00, 0xcb, 0x00, 0xfe, 0x02, 0x00, 0x00, 0x00, 0x00,
0xc4, 0x19, 0x00, 0xd7, 0x00, 0x00, 0x00, 0x00, 0xc1, 0x2a, 0xdf, 0xe3, 0x00, 0x00, 0x00, 0x00,
0xc2, 0x19, 0x07, 0xce, 0x00, 0x00, 0x00, 0x00, 0xc5, 0x2c, 0xe0, 0xdb, 0x00, 0x00, 0x00, 0x00
};
