/* SPDX-License-Identifier: GPL-2.0 */
/*
 * Copyright (c) 2015 MediaTek Inc.
 */

const unsigned char fd_kernel_bias_loop94_1_frame01[] = {
0xfc, 0xff, 0x08, 0xf9, 0x00, 0x00, 0x00, 0x00, 0x03, 0xff, 0x04, 0xfc, 0x00, 0x00, 0x00, 0x00,
0xe7, 0xfc, 0xff, 0x04, 0x00, 0x00, 0x00, 0x00, 0xe6, 0xfb, 0xfd, 0x07, 0x00, 0x00, 0x00, 0x00,
0x06, 0xfc, 0x02, 0x00, 0x00, 0x00, 0x00, 0x00, 0xfe, 0xfb, 0x01, 0x03, 0x00, 0x00, 0x00, 0x00,
0x0c, 0xf9, 0x04, 0xfe, 0x00, 0x00, 0x00, 0x00, 0x08, 0xf9, 0x02, 0x01, 0x00, 0x00, 0x00, 0x00,
0xd7, 0x00, 0xfe, 0x02, 0x00, 0x00, 0x00, 0x00, 0xe7, 0xff, 0xff, 0x01, 0x00, 0x00, 0x00, 0x00,
0x01, 0xff, 0x00, 0x00, 0x00, 0x00, 0x00, 0x00, 0xff, 0xff, 0xff, 0x02, 0x00, 0x00, 0x00, 0x00,
0xf5, 0xfa, 0x07, 0xfe, 0x00, 0x00, 0x00, 0x00, 0x06, 0xf7, 0x0f, 0xf6, 0x00, 0x00, 0x00, 0x00,
0x1c, 0xf7, 0x05, 0x01, 0x00, 0x00, 0x00, 0x00, 0x0d, 0xf6, 0xf2, 0x13, 0x00, 0x00, 0x00, 0x00,
0xe7, 0xfa, 0xfa, 0x0c, 0x00, 0x00, 0x00, 0x00, 0xfa, 0xf8, 0x01, 0x07, 0x00, 0x00, 0x00, 0x00,
0x0f, 0xfb, 0x00, 0x03, 0x00, 0x00, 0x00, 0x00, 0x05, 0xfb, 0x05, 0xfe, 0x00, 0x00, 0x00, 0x00,
0xeb, 0xfa, 0x01, 0x03, 0x00, 0x00, 0x00, 0x00, 0x02, 0xf2, 0x09, 0x01, 0x00, 0x00, 0x00, 0x00,
0xf3, 0xf9, 0xfd, 0x08, 0x00, 0x00, 0x00, 0x00, 0xf5, 0xf9, 0xfb, 0x0a, 0x00, 0x00, 0x00, 0x00,
0xe6, 0xfe, 0xf4, 0x0d, 0x00, 0x00, 0x00, 0x00, 0xf8, 0xff, 0x00, 0x01, 0x00, 0x00, 0x00, 0x00,
0xd9, 0xfe, 0x04, 0xfd, 0x00, 0x00, 0x00, 0x00, 0xd5, 0xfe, 0x02, 0x00, 0x00, 0x00, 0x00, 0x00,
0x26, 0x00, 0x00, 0x00, 0x00, 0x00, 0x00, 0x00, 0x22, 0x00, 0x00, 0x00, 0x00, 0x00, 0x00, 0x00,
0x05, 0xff, 0x01, 0xff, 0x00, 0x00, 0x00, 0x00, 0xef, 0xff, 0x03, 0xfd, 0x00, 0x00, 0x00, 0x00,
0xe6, 0xff, 0xff, 0x01, 0x00, 0x00, 0x00, 0x00, 0x10, 0x00, 0x00, 0x00, 0x00, 0x00, 0x00, 0x00,
0xfd, 0xf8, 0xa3, 0x67, 0x00, 0x00, 0x00, 0x00, 0xf6, 0xf6, 0xa0, 0x6a, 0x00, 0x00, 0x00, 0x00,
0x04, 0xfd, 0x03, 0xfe, 0x00, 0x00, 0x00, 0x00, 0xf4, 0xff, 0x03, 0xfd, 0x00, 0x00, 0x00, 0x00,
0xc7, 0x00, 0x01, 0xff, 0x00, 0x00, 0x00, 0x00, 0x0c, 0xf7, 0xff, 0x07, 0x00, 0x00, 0x00, 0x00,
0x0c, 0x00, 0x01, 0xff, 0x00, 0x00, 0x00, 0x00, 0xd9, 0xff, 0x02, 0xfe, 0x00, 0x00, 0x00, 0x00,
0xe5, 0xf7, 0x01, 0x04, 0x00, 0x00, 0x00, 0x00, 0xe6, 0xf5, 0x00, 0x08, 0x00, 0x00, 0x00, 0x00,
0x0b, 0xfa, 0xfc, 0x08, 0x00, 0x00, 0x00, 0x00, 0xf2, 0xff, 0x01, 0x00, 0x00, 0x00, 0x00, 0x00,
0x05, 0x00, 0x00, 0x00, 0x00, 0x00, 0x00, 0x00, 0xe5, 0xff, 0xfe, 0x02, 0x00, 0x00, 0x00, 0x00,
0xde, 0xff, 0x00, 0x01, 0x00, 0x00, 0x00, 0x00, 0x12, 0xfe, 0x04, 0xfd, 0x00, 0x00, 0x00, 0x00,
0xd7, 0xff, 0x01, 0xff, 0x00, 0x00, 0x00, 0x00, 0xf9, 0xff, 0xfd, 0x04, 0x00, 0x00, 0x00, 0x00,
0xf3, 0xfd, 0x09, 0xf8, 0x00, 0x00, 0x00, 0x00, 0xff, 0x00, 0x02, 0xfe, 0x00, 0x00, 0x00, 0x00,
0x18, 0xfd, 0x0e, 0xf6, 0x00, 0x00, 0x00, 0x00, 0x3a, 0xf6, 0x04, 0x03, 0x00, 0x00, 0x00, 0x00,
0xee, 0xf8, 0x04, 0x01, 0x00, 0x00, 0x00, 0x00, 0xeb, 0xf7, 0x05, 0x02, 0x00, 0x00, 0x00, 0x00,
0x11, 0xfd, 0x04, 0xfd, 0x00, 0x00, 0x00, 0x00, 0x18, 0xfc, 0x09, 0xfa, 0x00, 0x00, 0x00, 0x00,
0xfd, 0xff, 0x01, 0xff, 0x00, 0x00, 0x00, 0x00, 0xed, 0x00, 0x00, 0x00, 0x00, 0x00, 0x00, 0x00,
0xdb, 0x00, 0x00, 0x00, 0x00, 0x00, 0x00, 0x00, 0xce, 0x00, 0x00, 0x00, 0x00, 0x00, 0x00, 0x00,
0xfd, 0xfe, 0x0b, 0xf6, 0x00, 0x00, 0x00, 0x00, 0x02, 0xfe, 0x0a, 0xf7, 0x00, 0x00, 0x00, 0x00,
0x01, 0xfd, 0xfd, 0x06, 0x00, 0x00, 0x00, 0x00, 0xfc, 0xf9, 0xfd, 0x09, 0x00, 0x00, 0x00, 0x00,
0xfe, 0xfe, 0x02, 0x00, 0x00, 0x00, 0x00, 0x00, 0x00, 0xfe, 0x00, 0x02, 0x00, 0x00, 0x00, 0x00,
0xfe, 0xfa, 0x02, 0x00, 0x00, 0x00, 0x00, 0x00, 0x06, 0xf9, 0x03, 0x01, 0x00, 0x00, 0x00, 0x00,
0xfa, 0xff, 0x02, 0xfe, 0x00, 0x00, 0x00, 0x00, 0xfa, 0xff, 0x00, 0x01, 0x00, 0x00, 0x00, 0x00,
0x01, 0xfe, 0x00, 0x02, 0x00, 0x00, 0x00, 0x00, 0xfd, 0xfc, 0xff, 0x02, 0x00, 0x00, 0x00, 0x00,
0xf6, 0xfa, 0x06, 0xfe, 0x00, 0x00, 0x00, 0x00, 0x09, 0xf6, 0x0d, 0xfa, 0x00, 0x00, 0x00, 0x00,
0x23, 0xf8, 0x03, 0x01, 0x00, 0x00, 0x00, 0x00, 0x11, 0xf6, 0xf0, 0x16, 0x00, 0x00, 0x00, 0x00,
0xd7, 0xfb, 0xf8, 0x0c, 0x00, 0x00, 0x00, 0x00, 0xf0, 0xf4, 0x05, 0x05, 0x00, 0x00, 0x00, 0x00,
0xee, 0xfd, 0x02, 0x00, 0x00, 0x00, 0x00, 0x00, 0xeb, 0xfc, 0x07, 0xfa, 0x00, 0x00, 0x00, 0x00,
0xf9, 0xfb, 0xff, 0x03, 0x00, 0x00, 0x00, 0x00, 0x0f, 0xf3, 0x07, 0x03, 0x00, 0x00, 0x00, 0x00,
0xf7, 0xfc, 0xfe, 0x06, 0x00, 0x00, 0x00, 0x00, 0xfc, 0xfc, 0xfd, 0x06, 0x00, 0x00, 0x00, 0x00,
0xec, 0xfe, 0xf3, 0x0c, 0x00, 0x00, 0x00, 0x00, 0xf1, 0xff, 0x01, 0x00, 0x00, 0x00, 0x00, 0x00,
0x11, 0xff, 0x03, 0xfe, 0x00, 0x00, 0x00, 0x00, 0x12, 0x00, 0x01, 0xff, 0x00, 0x00, 0x00, 0x00,
0x1b, 0x00, 0x01, 0xff, 0x00, 0x00, 0x00, 0x00, 0x21, 0x00, 0x01, 0x00, 0x00, 0x00, 0x00, 0x00,
0xb6, 0xfe, 0x02, 0xff, 0x00, 0x00, 0x00, 0x00, 0xbd, 0xfe, 0xff, 0x02, 0x00, 0x00, 0x00, 0x00,
0xe9, 0xff, 0x01, 0xff, 0x00, 0x00, 0x00, 0x00, 0x0c, 0x00, 0x00, 0x00, 0x00, 0x00, 0x00, 0x00,
0xfc, 0xf9, 0xa3, 0x65, 0x00, 0x00, 0x00, 0x00, 0xfc, 0xf4, 0xa2, 0x69, 0x00, 0x00, 0x00, 0x00,
0x0f, 0xfd, 0x04, 0xfc, 0x00, 0x00, 0x00, 0x00, 0x0f, 0xff, 0x03, 0xfd, 0x00, 0x00, 0x00, 0x00,
0xc7, 0x00, 0x00, 0x00, 0x00, 0x00, 0x00, 0x00, 0x10, 0xf7, 0x01, 0x06, 0x00, 0x00, 0x00, 0x00,
0xe4, 0xff, 0x04, 0xfd, 0x00, 0x00, 0x00, 0x00, 0x15, 0xfd, 0x06, 0xfb, 0x00, 0x00, 0x00, 0x00,
0xe2, 0xf5, 0xff, 0x05, 0x00, 0x00, 0x00, 0x00, 0xed, 0xf0, 0x01, 0x0b, 0x00, 0x00, 0x00, 0x00,
0xf4, 0xfb, 0xfe, 0x06, 0x00, 0x00, 0x00, 0x00, 0xe4, 0xff, 0x02, 0xff, 0x00, 0x00, 0x00, 0x00,
0xfe, 0x00, 0x00, 0x00, 0x00, 0x00, 0x00, 0x00, 0xe5, 0xff, 0xff, 0x01, 0x00, 0x00, 0x00, 0x00,
0x08, 0xfe, 0xfb, 0x07, 0x00, 0x00, 0x00, 0x00, 0xd9, 0xfe, 0x03, 0xfe, 0x00, 0x00, 0x00, 0x00,
0xe9, 0xff, 0x00, 0x00, 0x00, 0x00, 0x00, 0x00, 0xfc, 0xfe, 0xfc, 0x05, 0x00, 0x00, 0x00, 0x00,
0xf1, 0xfe, 0x0b, 0xf6, 0x00, 0x00, 0x00, 0x00, 0x10, 0xff, 0x02, 0xff, 0x00, 0x00, 0x00, 0x00,
0x12, 0xfe, 0x0d, 0xf6, 0x00, 0x00, 0x00, 0x00, 0x30, 0xf7, 0x06, 0x01, 0x00, 0x00, 0x00, 0x00,
0xdb, 0xfc, 0x02, 0x02, 0x00, 0x00, 0x00, 0x00, 0xe3, 0xfb, 0x01, 0x03, 0x00, 0x00, 0x00, 0x00,
0xcd, 0xff, 0x01, 0x00, 0x00, 0x00, 0x00, 0x00, 0xd6, 0xfe, 0x05, 0xfd, 0x00, 0x00, 0x00, 0x00,
0xf7, 0xff, 0x01, 0xff, 0x00, 0x00, 0x00, 0x00, 0xeb, 0x00, 0x00, 0x00, 0x00, 0x00, 0x00, 0x00,
0xf4, 0x00, 0x00, 0x00, 0x00, 0x00, 0x00, 0x00, 0xd6, 0x00, 0x00, 0x00, 0x00, 0x00, 0x00, 0x00,
0xc6, 0xba, 0x0a, 0xff, 0x00, 0x00, 0x00, 0x00, 0xba, 0xe8, 0x07, 0x00, 0x00, 0x00, 0x00, 0x00
};
