/* SPDX-License-Identifier: GPL-2.0 */
/*
 * Copyright (c) 2015 MediaTek Inc.
 */

const unsigned char fd_kernel_bias_loop92_1_frame01[] = {
0xf4, 0x04, 0x0f, 0xed, 0x00, 0x00, 0x00, 0x00, 0xf3, 0x02, 0x0b, 0xf4, 0x00, 0x00, 0x00, 0x00,
0xd9, 0xfc, 0x05, 0xfe, 0x00, 0x00, 0x00, 0x00, 0xd3, 0xf9, 0x10, 0xf6, 0x00, 0x00, 0x00, 0x00,
0x08, 0x0e, 0xf0, 0x02, 0x00, 0x00, 0x00, 0x00, 0x10, 0x0b, 0xf0, 0x04, 0x00, 0x00, 0x00, 0x00,
0xfe, 0x03, 0xfa, 0x03, 0x00, 0x00, 0x00, 0x00, 0xf3, 0xff, 0x01, 0xff, 0x00, 0x00, 0x00, 0x00,
0xcc, 0xf7, 0x0a, 0xff, 0x00, 0x00, 0x00, 0x00, 0xd1, 0xf7, 0x08, 0x01, 0x00, 0x00, 0x00, 0x00,
0xc9, 0xfa, 0xfa, 0x0c, 0x00, 0x00, 0x00, 0x00, 0xc7, 0xfd, 0xfc, 0x06, 0x00, 0x00, 0x00, 0x00,
0x09, 0xe9, 0x0f, 0x06, 0x00, 0x00, 0x00, 0x00, 0x02, 0xeb, 0x12, 0x02, 0x00, 0x00, 0x00, 0x00,
0xac, 0x01, 0xf4, 0x0b, 0x00, 0x00, 0x00, 0x00, 0xcb, 0x04, 0xec, 0x10, 0x00, 0x00, 0x00, 0x00,
0xe7, 0xfe, 0xfb, 0x07, 0x00, 0x00, 0x00, 0x00, 0xe2, 0xfe, 0xfd, 0x05, 0x00, 0x00, 0x00, 0x00,
0xf8, 0xff, 0x07, 0xfa, 0x00, 0x00, 0x00, 0x00, 0xf3, 0xff, 0x06, 0xfb, 0x00, 0x00, 0x00, 0x00,
0x09, 0x03, 0x00, 0xfe, 0x00, 0x00, 0x00, 0x00, 0x1a, 0x03, 0xff, 0xfe, 0x00, 0x00, 0x00, 0x00,
0x3f, 0x0b, 0xe8, 0x0c, 0x00, 0x00, 0x00, 0x00, 0x2e, 0x08, 0xeb, 0x0b, 0x00, 0x00, 0x00, 0x00,
0xfd, 0x39, 0xb9, 0x15, 0x00, 0x00, 0x00, 0x00, 0xe7, 0x3b, 0xbe, 0x11, 0x00, 0x00, 0x00, 0x00,
0xee, 0x01, 0x0a, 0xf7, 0x00, 0x00, 0x00, 0x00, 0xf8, 0x00, 0x08, 0xf9, 0x00, 0x00, 0x00, 0x00,
0x10, 0x03, 0x00, 0xfe, 0x00, 0x00, 0x00, 0x00, 0x0b, 0x03, 0x02, 0xfa, 0x00, 0x00, 0x00, 0x00,
0x2c, 0x0f, 0xf6, 0xfd, 0x00, 0x00, 0x00, 0x00, 0x2d, 0x0f, 0xf7, 0xfa, 0x00, 0x00, 0x00, 0x00,
0xd8, 0x06, 0x04, 0xf6, 0x00, 0x00, 0x00, 0x00, 0xcc, 0x03, 0xfe, 0xff, 0x00, 0x00, 0x00, 0x00,
0xfc, 0xd6, 0xda, 0x5a, 0x00, 0x00, 0x00, 0x00, 0x00, 0xd5, 0xdc, 0x59, 0x00, 0x00, 0x00, 0x00,
0x0f, 0x0a, 0xfa, 0xfe, 0x00, 0x00, 0x00, 0x00, 0xf0, 0x08, 0xf9, 0x01, 0x00, 0x00, 0x00, 0x00,
0xe1, 0x02, 0xf8, 0x06, 0x00, 0x00, 0x00, 0x00, 0xe3, 0x03, 0xf5, 0x08, 0x00, 0x00, 0x00, 0x00,
0xf8, 0x05, 0x06, 0xf5, 0x00, 0x00, 0x00, 0x00, 0xec, 0x00, 0x06, 0xf9, 0x00, 0x00, 0x00, 0x00,
0x11, 0xfa, 0x01, 0x05, 0x00, 0x00, 0x00, 0x00, 0x0f, 0xf7, 0x08, 0x01, 0x00, 0x00, 0x00, 0x00,
0xeb, 0x06, 0xf4, 0x07, 0x00, 0x00, 0x00, 0x00, 0xfd, 0x01, 0xfb, 0x04, 0x00, 0x00, 0x00, 0x00,
0xd6, 0x03, 0xfc, 0x02, 0x00, 0x00, 0x00, 0x00, 0xd7, 0x03, 0xfc, 0x01, 0x00, 0x00, 0x00, 0x00,
0xf6, 0xfa, 0x01, 0x05, 0x00, 0x00, 0x00, 0x00, 0xfc, 0xfd, 0x01, 0x02, 0x00, 0x00, 0x00, 0x00,
0xe0, 0x03, 0xfe, 0xff, 0x00, 0x00, 0x00, 0x00, 0xf3, 0x06, 0xf7, 0x03, 0x00, 0x00, 0x00, 0x00,
0x0e, 0x03, 0x06, 0xf9, 0x00, 0x00, 0x00, 0x00, 0xd6, 0x04, 0x04, 0xf9, 0x00, 0x00, 0x00, 0x00,
0xf7, 0xfd, 0x00, 0x03, 0x00, 0x00, 0x00, 0x00, 0xe4, 0xfa, 0x03, 0x02, 0x00, 0x00, 0x00, 0x00,
0xf2, 0xfa, 0x0c, 0xfa, 0x00, 0x00, 0x00, 0x00, 0xf9, 0xf9, 0x10, 0xf8, 0x00, 0x00, 0x00, 0x00,
0xef, 0xfa, 0x02, 0x03, 0x00, 0x00, 0x00, 0x00, 0xf3, 0xfe, 0x01, 0x00, 0x00, 0x00, 0x00, 0x00,
0xeb, 0x10, 0xf6, 0xfc, 0x00, 0x00, 0x00, 0x00, 0xfa, 0x11, 0xf7, 0xfa, 0x00, 0x00, 0x00, 0x00,
0xf9, 0x0c, 0xfe, 0xf7, 0x00, 0x00, 0x00, 0x00, 0xe3, 0x0e, 0xfa, 0xf9, 0x00, 0x00, 0x00, 0x00,
0xf1, 0x08, 0x12, 0xe7, 0x00, 0x00, 0x00, 0x00, 0xf1, 0x07, 0x13, 0xe9, 0x00, 0x00, 0x00, 0x00,
0xda, 0xff, 0x00, 0x00, 0x00, 0x00, 0x00, 0x00, 0xd4, 0x00, 0x0a, 0xf6, 0x00, 0x00, 0x00, 0x00,
0xf2, 0x09, 0xf6, 0x01, 0x00, 0x00, 0x00, 0x00, 0xef, 0x06, 0xf6, 0x04, 0x00, 0x00, 0x00, 0x00,
0xff, 0x01, 0xfc, 0x03, 0x00, 0x00, 0x00, 0x00, 0xf6, 0xfb, 0x04, 0x01, 0x00, 0x00, 0x00, 0x00,
0xd3, 0xf9, 0x09, 0xfe, 0x00, 0x00, 0x00, 0x00, 0xd6, 0xf9, 0x07, 0x00, 0x00, 0x00, 0x00, 0x00,
0xd3, 0x00, 0xf7, 0x09, 0x00, 0x00, 0x00, 0x00, 0xde, 0xff, 0xfa, 0x08, 0x00, 0x00, 0x00, 0x00,
0x0e, 0xeb, 0x10, 0x04, 0x00, 0x00, 0x00, 0x00, 0x07, 0xec, 0x12, 0x01, 0x00, 0x00, 0x00, 0x00,
0xab, 0x01, 0xf5, 0x0a, 0x00, 0x00, 0x00, 0x00, 0xc6, 0x07, 0xea, 0x0f, 0x00, 0x00, 0x00, 0x00,
0xe3, 0xfc, 0xfc, 0x08, 0x00, 0x00, 0x00, 0x00, 0xe4, 0xfb, 0xfc, 0x08, 0x00, 0x00, 0x00, 0x00,
0xfa, 0xfc, 0x0d, 0xf7, 0x00, 0x00, 0x00, 0x00, 0xf3, 0xfe, 0x0a, 0xf7, 0x00, 0x00, 0x00, 0x00,
0x11, 0x02, 0x00, 0xfe, 0x00, 0x00, 0x00, 0x00, 0x20, 0x01, 0x01, 0xfe, 0x00, 0x00, 0x00, 0x00,
0x0f, 0x09, 0xe8, 0x0d, 0x00, 0x00, 0x00, 0x00, 0x00, 0x08, 0xec, 0x0b, 0x00, 0x00, 0x00, 0x00,
0x02, 0x39, 0xb8, 0x17, 0x00, 0x00, 0x00, 0x00, 0xe9, 0x3a, 0xbc, 0x14, 0x00, 0x00, 0x00, 0x00,
0xd6, 0x01, 0x0b, 0xf5, 0x00, 0x00, 0x00, 0x00, 0xdf, 0x00, 0x08, 0xfa, 0x00, 0x00, 0x00, 0x00,
0x16, 0x03, 0x01, 0xfb, 0x00, 0x00, 0x00, 0x00, 0x0e, 0x02, 0x04, 0xf9, 0x00, 0x00, 0x00, 0x00,
0x2f, 0x10, 0xf6, 0xfc, 0x00, 0x00, 0x00, 0x00, 0x31, 0x11, 0xf7, 0xfa, 0x00, 0x00, 0x00, 0x00,
0xd5, 0x01, 0x08, 0xf7, 0x00, 0x00, 0x00, 0x00, 0xce, 0xfd, 0x01, 0x01, 0x00, 0x00, 0x00, 0x00,
0xfb, 0xd8, 0xd6, 0x5b, 0x00, 0x00, 0x00, 0x00, 0xfd, 0xd8, 0xd7, 0x5a, 0x00, 0x00, 0x00, 0x00,
0x09, 0x09, 0xf9, 0x00, 0x00, 0x00, 0x00, 0x00, 0xef, 0x07, 0xf7, 0x02, 0x00, 0x00, 0x00, 0x00,
0xdb, 0x00, 0xfa, 0x06, 0x00, 0x00, 0x00, 0x00, 0xe2, 0x03, 0xf5, 0x07, 0x00, 0x00, 0x00, 0x00,
0xf9, 0x04, 0x03, 0xf9, 0x00, 0x00, 0x00, 0x00, 0xec, 0x00, 0x02, 0xfd, 0x00, 0x00, 0x00, 0x00,
0xf1, 0xfc, 0x01, 0x03, 0x00, 0x00, 0x00, 0x00, 0xf1, 0xf9, 0x07, 0x00, 0x00, 0x00, 0x00, 0x00,
0xef, 0x05, 0xf5, 0x07, 0x00, 0x00, 0x00, 0x00, 0xfe, 0xff, 0xfd, 0x04, 0x00, 0x00, 0x00, 0x00,
0xdb, 0x01, 0xff, 0x01, 0x00, 0x00, 0x00, 0x00, 0xd9, 0x01, 0x00, 0x00, 0x00, 0x00, 0x00, 0x00,
0x03, 0xff, 0xfd, 0x04, 0x00, 0x00, 0x00, 0x00, 0xf4, 0xfe, 0xff, 0x03, 0x00, 0x00, 0x00, 0x00,
0xe7, 0x10, 0xf1, 0xfe, 0x00, 0x00, 0x00, 0x00, 0xf6, 0x08, 0xf3, 0x05, 0x00, 0x00, 0x00, 0x00,
0x0e, 0x04, 0x07, 0xf7, 0x00, 0x00, 0x00, 0x00, 0xcd, 0x05, 0x06, 0xf7, 0x00, 0x00, 0x00, 0x00,
0xf6, 0xfd, 0xfe, 0x04, 0x00, 0x00, 0x00, 0x00, 0xe5, 0x00, 0x01, 0xff, 0x00, 0x00, 0x00, 0x00,
0x03, 0xfd, 0x07, 0xfc, 0x00, 0x00, 0x00, 0x00, 0x0a, 0xfc, 0x0b, 0xf9, 0x00, 0x00, 0x00, 0x00,
0xcb, 0x01, 0xfe, 0x01, 0x00, 0x00, 0x00, 0x00, 0xdb, 0x05, 0xfa, 0x00, 0x00, 0x00, 0x00, 0x00,
0xe2, 0x13, 0xf4, 0xfc, 0x00, 0x00, 0x00, 0x00, 0xf2, 0x12, 0xf7, 0xf8, 0x00, 0x00, 0x00, 0x00,
0xf9, 0x0d, 0x01, 0xf4, 0x00, 0x00, 0x00, 0x00, 0xe7, 0x0e, 0xfc, 0xf8, 0x00, 0x00, 0x00, 0x00,
0xfa, 0x0a, 0x12, 0xe5, 0x00, 0x00, 0x00, 0x00, 0xf6, 0x08, 0x0f, 0xeb, 0x00, 0x00, 0x00, 0x00,
0xdf, 0x00, 0x00, 0xff, 0x00, 0x00, 0x00, 0x00, 0xdd, 0xfa, 0x09, 0xfb, 0x00, 0x00, 0x00, 0x00,
0xe9, 0x0d, 0xf1, 0x02, 0x00, 0x00, 0x00, 0x00, 0xe9, 0x0b, 0xf3, 0x03, 0x00, 0x00, 0x00, 0x00,
0xc8, 0x01, 0xf9, 0x06, 0x00, 0x00, 0x00, 0x00, 0xc8, 0xfa, 0x05, 0x01, 0x00, 0x00, 0x00, 0x00,
0xee, 0xf4, 0x12, 0xfa, 0x00, 0x00, 0x00, 0x00, 0xe3, 0xf6, 0x0d, 0xfc, 0x00, 0x00, 0x00, 0x00,
0xc7, 0xfd, 0xfe, 0x05, 0x00, 0x00, 0x00, 0x00, 0xd0, 0xfb, 0xff, 0x06, 0x00, 0x00, 0x00, 0x00,
0xfe, 0xe7, 0x12, 0x05, 0x00, 0x00, 0x00, 0x00, 0xfb, 0xe9, 0x14, 0x02, 0x00, 0x00, 0x00, 0x00,
0xac, 0x04, 0xf0, 0x0c, 0x00, 0x00, 0x00, 0x00, 0xbe, 0x0e, 0xe3, 0x0f, 0x00, 0x00, 0x00, 0x00,
0xe3, 0x00, 0xf2, 0x0c, 0x00, 0x00, 0x00, 0x00, 0xdd, 0x01, 0xf2, 0x0b, 0x00, 0x00, 0x00, 0x00,
0xf3, 0xf5, 0x0e, 0xfd, 0x00, 0x00, 0x00, 0x00, 0xf2, 0xf7, 0x0e, 0xfa, 0x00, 0x00, 0x00, 0x00,
0x14, 0x01, 0x00, 0xff, 0x00, 0x00, 0x00, 0x00, 0x07, 0x01, 0x03, 0xfc, 0x00, 0x00, 0x00, 0x00,
0x1d, 0x0c, 0xe3, 0x0e, 0x00, 0x00, 0x00, 0x00, 0x20, 0x09, 0xea, 0x0c, 0x00, 0x00, 0x00, 0x00,
0x11, 0x35, 0xb8, 0x18, 0x00, 0x00, 0x00, 0x00, 0xfa, 0x36, 0xbc, 0x14, 0x00, 0x00, 0x00, 0x00,
0x04, 0xff, 0x0a, 0xf8, 0x00, 0x00, 0x00, 0x00, 0x03, 0x01, 0x08, 0xf8, 0x00, 0x00, 0x00, 0x00,
0xfa, 0x02, 0xfe, 0x00, 0x00, 0x00, 0x00, 0x00, 0xfd, 0x03, 0x00, 0xfc, 0x00, 0x00, 0x00, 0x00,
0xed, 0x0e, 0xf5, 0xfe, 0x00, 0x00, 0x00, 0x00, 0xeb, 0x10, 0xf5, 0xfc, 0x00, 0x00, 0x00, 0x00,
0xed, 0x08, 0x08, 0xf0, 0x00, 0x00, 0x00, 0x00, 0xdd, 0x04, 0x03, 0xf9, 0x00, 0x00, 0x00, 0x00,
0x04, 0xd7, 0xd7, 0x5d, 0x00, 0x00, 0x00, 0x00, 0x05, 0xd3, 0xda, 0x5a, 0x00, 0x00, 0x00, 0x00,
0xe3, 0x04, 0xfc, 0x00, 0x00, 0x00, 0x00, 0x00, 0xeb, 0x06, 0xf8, 0x03, 0x00, 0x00, 0x00, 0x00,
0xf3, 0x03, 0xf6, 0x07, 0x00, 0x00, 0x00, 0x00, 0xfe, 0x02, 0xf6, 0x08, 0x00, 0x00, 0x00, 0x00,
0xf9, 0x07, 0x09, 0xf0, 0x00, 0x00, 0x00, 0x00, 0xf0, 0xff, 0x08, 0xf8, 0x00, 0x00, 0x00, 0x00,
0xdf, 0xfa, 0x02, 0x04, 0x00, 0x00, 0x00, 0x00, 0xdf, 0xf7, 0x09, 0x00, 0x00, 0x00, 0x00, 0x00,
0xee, 0x08, 0xf1, 0x08, 0x00, 0x00, 0x00, 0x00, 0x00, 0x03, 0xfa, 0x03, 0x00, 0x00, 0x00, 0x00,
0x13, 0x01, 0xf6, 0x09, 0x00, 0x00, 0x00, 0x00, 0x12, 0x03, 0xf5, 0x08, 0x00, 0x00, 0x00, 0x00,
0xe8, 0xf8, 0x04, 0x04, 0x00, 0x00, 0x00, 0x00, 0xf2, 0xfe, 0x03, 0xff, 0x00, 0x00, 0x00, 0x00,
0xec, 0x08, 0xfa, 0xfd, 0x00, 0x00, 0x00, 0x00, 0xf5, 0x09, 0xf5, 0x03, 0x00, 0x00, 0x00, 0x00,
0xf9, 0x03, 0x02, 0xfd, 0x00, 0x00, 0x00, 0x00, 0xef, 0x06, 0x03, 0xf9, 0x00, 0x00, 0x00, 0x00,
0xf0, 0xfe, 0xff, 0x03, 0x00, 0x00, 0x00, 0x00, 0xe7, 0xfd, 0x02, 0x00, 0x00, 0x00, 0x00, 0x00,
0xe2, 0xfc, 0x0b, 0xf9, 0x00, 0x00, 0x00, 0x00, 0xea, 0xfb, 0x0e, 0xf6, 0x00, 0x00, 0x00, 0x00,
0xc0, 0xfd, 0x00, 0x02, 0x00, 0x00, 0x00, 0x00, 0xc2, 0xff, 0x00, 0x01, 0x00, 0x00, 0x00, 0x00,
0xdc, 0x15, 0xf3, 0xfa, 0x00, 0x00, 0x00, 0x00, 0xfe, 0x13, 0xf7, 0xf7, 0x00, 0x00, 0x00, 0x00,
0xdd, 0x0c, 0xfd, 0xf8, 0x00, 0x00, 0x00, 0x00, 0xc0, 0x0e, 0xfa, 0xfa, 0x00, 0x00, 0x00, 0x00,
0xf8, 0x0c, 0x13, 0xe3, 0x00, 0x00, 0x00, 0x00, 0xf3, 0x0b, 0x12, 0xe6, 0x00, 0x00, 0x00, 0x00,
0xdd, 0x01, 0xff, 0x00, 0x00, 0x00, 0x00, 0x00, 0xda, 0x00, 0x05, 0xfa, 0x00, 0x00, 0x00, 0x00,
0xef, 0x0a, 0xf4, 0x02, 0x00, 0x00, 0x00, 0x00, 0xf1, 0x09, 0xf1, 0x05, 0x00, 0x00, 0x00, 0x00,
0xbb, 0x02, 0xfa, 0x04, 0x00, 0x00, 0x00, 0x00, 0xb7, 0xf8, 0x08, 0x00, 0x00, 0x00, 0x00, 0x00,
0xee, 0xf5, 0x12, 0xf8, 0x00, 0x00, 0x00, 0x00, 0xe4, 0xf6, 0x0d, 0xfc, 0x00, 0x00, 0x00, 0x00,
0xb9, 0x02, 0xfb, 0x02, 0x00, 0x00, 0x00, 0x00, 0xc4, 0x00, 0xfb, 0x04, 0x00, 0x00, 0x00, 0x00,
0xff, 0xe8, 0x13, 0x04, 0x00, 0x00, 0x00, 0x00, 0xfd, 0xeb, 0x13, 0x01, 0x00, 0x00, 0x00, 0x00,
0xa6, 0x01, 0xf0, 0x0e, 0x00, 0x00, 0x00, 0x00, 0xb9, 0x0e, 0xe1, 0x11, 0x00, 0x00, 0x00, 0x00,
0xd9, 0xfe, 0xf4, 0x0c, 0x00, 0x00, 0x00, 0x00, 0xd5, 0x00, 0xf3, 0x0b, 0x00, 0x00, 0x00, 0x00,
0xf9, 0xf5, 0x11, 0xf9, 0x00, 0x00, 0x00, 0x00, 0xf7, 0xf7, 0x10, 0xf8, 0x00, 0x00, 0x00, 0x00,
0x06, 0x02, 0x00, 0xfe, 0x00, 0x00, 0x00, 0x00, 0xfc, 0x00, 0x04, 0xfb, 0x00, 0x00, 0x00, 0x00,
0xf5, 0x0c, 0xe3, 0x0f, 0x00, 0x00, 0x00, 0x00, 0xf9, 0x08, 0xec, 0x0b, 0x00, 0x00, 0x00, 0x00,
0x12, 0x35, 0xb7, 0x19, 0x00, 0x00, 0x00, 0x00, 0xfa, 0x36, 0xb9, 0x16, 0x00, 0x00, 0x00, 0x00,
0xb8, 0xff, 0x0d, 0xf6, 0x00, 0x00, 0x00, 0x00, 0xbb, 0x00, 0x09, 0xf8, 0x00, 0x00, 0x00, 0x00,
0xf8, 0x03, 0x00, 0xfd, 0x00, 0x00, 0x00, 0x00, 0xf8, 0x01, 0x02, 0xfc, 0x00, 0x00, 0x00, 0x00,
0xfc, 0x10, 0xf4, 0xfd, 0x00, 0x00, 0x00, 0x00, 0xf9, 0x10, 0xf5, 0xfc, 0x00, 0x00, 0x00, 0x00,
0xea, 0x05, 0x08, 0xf3, 0x00, 0x00, 0x00, 0x00, 0xe0, 0x00, 0x03, 0xfc, 0x00, 0x00, 0x00, 0x00,
0x03, 0xd8, 0xd5, 0x5d, 0x00, 0x00, 0x00, 0x00, 0x03, 0xd5, 0xd7, 0x5a, 0x00, 0x00, 0x00, 0x00,
0xdf, 0x05, 0xfa, 0x02, 0x00, 0x00, 0x00, 0x00, 0xed, 0x07, 0xf6, 0x04, 0x00, 0x00, 0x00, 0x00,
0xea, 0x02, 0xf5, 0x09, 0x00, 0x00, 0x00, 0x00, 0xfa, 0x03, 0xf4, 0x09, 0x00, 0x00, 0x00, 0x00,
0xfb, 0x05, 0x09, 0xf2, 0x00, 0x00, 0x00, 0x00, 0xef, 0xfb, 0x09, 0xfc, 0x00, 0x00, 0x00, 0x00,
0xfd, 0xfb, 0x01, 0x03, 0x00, 0x00, 0x00, 0x00, 0xfa, 0xf7, 0x08, 0x00, 0x00, 0x00, 0x00, 0x00,
0xf9, 0x07, 0xf0, 0x0a, 0x00, 0x00, 0x00, 0x00, 0x05, 0x00, 0xfb, 0x05, 0x00, 0x00, 0x00, 0x00,
0x12, 0xff, 0xf8, 0x09, 0x00, 0x00, 0x00, 0x00, 0x10, 0x02, 0xf6, 0x07, 0x00, 0x00, 0x00, 0x00,
0xeb, 0xfd, 0x01, 0x03, 0x00, 0x00, 0x00, 0x00, 0xf4, 0xff, 0x01, 0x01, 0x00, 0x00, 0x00, 0x00,
0xee, 0x0e, 0xf5, 0xfc, 0x00, 0x00, 0x00, 0x00, 0xf8, 0x09, 0xf5, 0x02, 0x00, 0x00, 0x00, 0x00,
0xfc, 0x03, 0x04, 0xfb, 0x00, 0x00, 0x00, 0x00, 0xf2, 0x06, 0x06, 0xf7, 0x00, 0x00, 0x00, 0x00,
0xf7, 0xfd, 0xfe, 0x05, 0x00, 0x00, 0x00, 0x00, 0xf0, 0xff, 0x01, 0x00, 0x00, 0x00, 0x00, 0x00,
0xde, 0x00, 0x04, 0xfc, 0x00, 0x00, 0x00, 0x00, 0xe4, 0xff, 0x0a, 0xf8, 0x00, 0x00, 0x00, 0x00,
0xe3, 0xfb, 0x01, 0x04, 0x00, 0x00, 0x00, 0x00, 0xe8, 0x01, 0xfb, 0x04, 0x00, 0x00, 0x00, 0x00,
0xdb, 0x16, 0xf0, 0xfb, 0x00, 0x00, 0x00, 0x00, 0x02, 0x14, 0xf6, 0xf7, 0x00, 0x00, 0x00, 0x00,
0xe5, 0x0c, 0xff, 0xf7, 0x00, 0x00, 0x00, 0x00, 0xc3, 0x0e, 0xfb, 0xf9, 0x00, 0x00, 0x00, 0x00,
0xc3, 0x2b, 0x0b, 0xb5, 0x00, 0x00, 0x00, 0x00, 0xc3, 0x3b, 0xca, 0xe2, 0x00, 0x00, 0x00, 0x00,
0xbf, 0x45, 0x15, 0x8c, 0x00, 0x00, 0x00, 0x00, 0xbc, 0x51, 0xba, 0xd7, 0x00, 0x00, 0x00, 0x00
};
