/* SPDX-License-Identifier: GPL-2.0 */
/*
 * Copyright (c) 2015 MediaTek Inc.
 */

const unsigned char fd_kernel_bias_loop62_0_frame01[] = {
0x0b, 0xfa, 0x06, 0xff, 0x00, 0x00, 0x00, 0x00, 0x08, 0xfb, 0xfd, 0x07, 0x00, 0x00, 0x00, 0x00,
0x03, 0xff, 0x01, 0xff, 0x00, 0x00, 0x00, 0x00, 0xeb, 0xff, 0xff, 0x01, 0x00, 0x00, 0x00, 0x00,
0xdc, 0x00, 0x00, 0x00, 0x00, 0x00, 0x00, 0x00, 0xd1, 0xff, 0xff, 0x01, 0x00, 0x00, 0x00, 0x00,
0xe3, 0x00, 0x00, 0x00, 0x00, 0x00, 0x00, 0x00, 0xde, 0x00, 0x01, 0xff, 0x00, 0x00, 0x00, 0x00,
0xca, 0xfc, 0x07, 0xfd, 0x00, 0x00, 0x00, 0x00, 0xdf, 0xfd, 0x05, 0xfe, 0x00, 0x00, 0x00, 0x00,
0xf0, 0xf4, 0x4a, 0xc3, 0x00, 0x00, 0x00, 0x00, 0xf8, 0xf1, 0x42, 0xc9, 0x00, 0x00, 0x00, 0x00,
0xf7, 0x00, 0x01, 0xff, 0x00, 0x00, 0x00, 0x00, 0xfc, 0xfe, 0x03, 0xfd, 0x00, 0x00, 0x00, 0x00,
0xff, 0x00, 0x00, 0x00, 0x00, 0x00, 0x00, 0x00, 0xfa, 0x00, 0x00, 0x00, 0x00, 0x00, 0x00, 0x00,
0xfb, 0xfe, 0x03, 0xff, 0x00, 0x00, 0x00, 0x00, 0xfd, 0xfe, 0x00, 0x01, 0x00, 0x00, 0x00, 0x00,
0x10, 0xee, 0x08, 0x06, 0x00, 0x00, 0x00, 0x00, 0x07, 0xf0, 0x11, 0xfc, 0x00, 0x00, 0x00, 0x00,
0xf8, 0xff, 0xfe, 0x03, 0x00, 0x00, 0x00, 0x00, 0xf7, 0xfe, 0xfd, 0x04, 0x00, 0x00, 0x00, 0x00,
0xe9, 0x00, 0xfe, 0x02, 0x00, 0x00, 0x00, 0x00, 0xeb, 0xff, 0xfe, 0x02, 0x00, 0x00, 0x00, 0x00,
0x20, 0x00, 0x00, 0x00, 0x00, 0x00, 0x00, 0x00, 0xe2, 0x00, 0x01, 0xff, 0x00, 0x00, 0x00, 0x00,
0xdb, 0xfc, 0xff, 0x03, 0x00, 0x00, 0x00, 0x00, 0xda, 0xfd, 0xfc, 0x06, 0x00, 0x00, 0x00, 0x00,
0xfe, 0xfe, 0x03, 0xff, 0x00, 0x00, 0x00, 0x00, 0xe6, 0xfe, 0x06, 0xfb, 0x00, 0x00, 0x00, 0x00,
0x13, 0xff, 0x00, 0x00, 0x00, 0x00, 0x00, 0x00, 0xe7, 0x00, 0xff, 0x02, 0x00, 0x00, 0x00, 0x00,
0x11, 0x00, 0x03, 0xfd, 0x00, 0x00, 0x00, 0x00, 0x12, 0x00, 0x01, 0xff, 0x00, 0x00, 0x00, 0x00,
0xe8, 0xff, 0x01, 0xff, 0x00, 0x00, 0x00, 0x00, 0xed, 0xff, 0x01, 0xff, 0x00, 0x00, 0x00, 0x00,
0xdf, 0xff, 0x03, 0xfe, 0x00, 0x00, 0x00, 0x00, 0xe9, 0x00, 0x01, 0x00, 0x00, 0x00, 0x00, 0x00,
0xf6, 0x00, 0x00, 0x00, 0x00, 0x00, 0x00, 0x00, 0xfb, 0x00, 0x00, 0x00, 0x00, 0x00, 0x00, 0x00,
0x09, 0xfd, 0xff, 0x03, 0x00, 0x00, 0x00, 0x00, 0x01, 0xf9, 0xf6, 0x0e, 0x00, 0x00, 0x00, 0x00,
0x04, 0xfd, 0xfd, 0x05, 0x00, 0x00, 0x00, 0x00, 0x04, 0xfc, 0xfa, 0x08, 0x00, 0x00, 0x00, 0x00,
0xc6, 0xff, 0xfe, 0x03, 0x00, 0x00, 0x00, 0x00, 0x29, 0x00, 0x00, 0x00, 0x00, 0x00, 0x00, 0x00,
0xad, 0x00, 0x00, 0x00, 0x00, 0x00, 0x00, 0x00, 0xb2, 0x00, 0x00, 0x00, 0x00, 0x00, 0x00, 0x00,
0x16, 0xf8, 0x06, 0xff, 0x00, 0x00, 0x00, 0x00, 0xcc, 0x00, 0x01, 0xff, 0x00, 0x00, 0x00, 0x00,
0xdd, 0x00, 0xff, 0x01, 0x00, 0x00, 0x00, 0x00, 0xdb, 0xff, 0x00, 0x01, 0x00, 0x00, 0x00, 0x00,
0xd9, 0xff, 0xfd, 0x04, 0x00, 0x00, 0x00, 0x00, 0xde, 0xff, 0x00, 0x00, 0x00, 0x00, 0x00, 0x00,
0x00, 0xff, 0xfe, 0x03, 0x00, 0x00, 0x00, 0x00, 0xec, 0xfc, 0xfa, 0x0a, 0x00, 0x00, 0x00, 0x00,
0x97, 0xfd, 0x02, 0xff, 0x00, 0x00, 0x00, 0x00, 0x91, 0xfd, 0xfe, 0x03, 0x00, 0x00, 0x00, 0x00,
0x1c, 0x00, 0x00, 0x00, 0x00, 0x00, 0x00, 0x00, 0xf9, 0xfd, 0xf5, 0x0d, 0x00, 0x00, 0x00, 0x00,
0xe8, 0x00, 0x00, 0x01, 0x00, 0x00, 0x00, 0x00, 0xec, 0xff, 0xfe, 0x03, 0x00, 0x00, 0x00, 0x00,
0xed, 0xfe, 0x05, 0xfd, 0x00, 0x00, 0x00, 0x00, 0xe7, 0xfe, 0x01, 0x00, 0x00, 0x00, 0x00, 0x00,
0x06, 0xfb, 0x04, 0x00, 0x00, 0x00, 0x00, 0x00, 0x06, 0xfa, 0xff, 0x06, 0x00, 0x00, 0x00, 0x00,
0xfd, 0xff, 0x02, 0xff, 0x00, 0x00, 0x00, 0x00, 0xe4, 0xfd, 0xfe, 0x04, 0x00, 0x00, 0x00, 0x00,
0xd9, 0xff, 0xff, 0x01, 0x00, 0x00, 0x00, 0x00, 0xd9, 0xff, 0x00, 0x00, 0x00, 0x00, 0x00, 0x00,
0xf3, 0x00, 0x00, 0x00, 0x00, 0x00, 0x00, 0x00, 0xed, 0x00, 0x01, 0xff, 0x00, 0x00, 0x00, 0x00,
0x11, 0xfa, 0x08, 0xff, 0x00, 0x00, 0x00, 0x00, 0x18, 0xf9, 0x02, 0x02, 0x00, 0x00, 0x00, 0x00,
0xf3, 0xf6, 0x4d, 0xbd, 0x00, 0x00, 0x00, 0x00, 0xfb, 0xf0, 0x45, 0xca, 0x00, 0x00, 0x00, 0x00,
0xd3, 0x00, 0x02, 0xfe, 0x00, 0x00, 0x00, 0x00, 0xfa, 0xfe, 0x02, 0xfe, 0x00, 0x00, 0x00, 0x00,
0x05, 0x00, 0x01, 0xff, 0x00, 0x00, 0x00, 0x00, 0xff, 0x00, 0x00, 0x00, 0x00, 0x00, 0x00, 0x00,
0xd7, 0x00, 0x01, 0x00, 0x00, 0x00, 0x00, 0x00, 0xd7, 0x00, 0x00, 0x01, 0x00, 0x00, 0x00, 0x00,
0x0c, 0xf0, 0x03, 0x07, 0x00, 0x00, 0x00, 0x00, 0xfc, 0xf0, 0x10, 0xfe, 0x00, 0x00, 0x00, 0x00,
0xe3, 0xff, 0xff, 0x01, 0x00, 0x00, 0x00, 0x00, 0xdf, 0xfe, 0x00, 0x01, 0x00, 0x00, 0x00, 0x00,
0xe4, 0x00, 0xfe, 0x02, 0x00, 0x00, 0x00, 0x00, 0xdf, 0x00, 0xff, 0x00, 0x00, 0x00, 0x00, 0x00,
0x19, 0x00, 0x00, 0x00, 0x00, 0x00, 0x00, 0x00, 0xdc, 0x00, 0x01, 0xff, 0x00, 0x00, 0x00, 0x00,
0xf8, 0xfc, 0xfb, 0x06, 0x00, 0x00, 0x00, 0x00, 0xf8, 0xfa, 0xfa, 0x09, 0x00, 0x00, 0x00, 0x00,
0x14, 0xfc, 0x05, 0xfe, 0x00, 0x00, 0x00, 0x00, 0x0e, 0xfa, 0x0a, 0xf9, 0x00, 0x00, 0x00, 0x00,
0x16, 0x00, 0x01, 0xff, 0x00, 0x00, 0x00, 0x00, 0xff, 0x00, 0x00, 0x01, 0x00, 0x00, 0x00, 0x00,
0x13, 0x00, 0x03, 0xfd, 0x00, 0x00, 0x00, 0x00, 0x0f, 0x00, 0x00, 0x00, 0x00, 0x00, 0x00, 0x00,
0xed, 0xff, 0x00, 0x00, 0x00, 0x00, 0x00, 0x00, 0xed, 0xfe, 0x02, 0xff, 0x00, 0x00, 0x00, 0x00,
0xdf, 0xff, 0x04, 0xfc, 0x00, 0x00, 0x00, 0x00, 0xdf, 0xff, 0x01, 0xff, 0x00, 0x00, 0x00, 0x00,
0xfa, 0x00, 0x00, 0x00, 0x00, 0x00, 0x00, 0x00, 0x00, 0x00, 0x00, 0x00, 0x00, 0x00, 0x00, 0x00,
0x10, 0xfe, 0xfd, 0x05, 0x00, 0x00, 0x00, 0x00, 0xdb, 0xf7, 0xf5, 0x11, 0x00, 0x00, 0x00, 0x00,
0x04, 0xfe, 0xfd, 0x03, 0x00, 0x00, 0x00, 0x00, 0x02, 0xfc, 0xfc, 0x07, 0x00, 0x00, 0x00, 0x00,
0xd8, 0xff, 0xfc, 0x04, 0x00, 0x00, 0x00, 0x00, 0x34, 0x00, 0x00, 0x00, 0x00, 0x00, 0x00, 0x00,
0xa2, 0x00, 0x00, 0x00, 0x00, 0x00, 0x00, 0x00, 0xa8, 0x00, 0x00, 0x00, 0x00, 0x00, 0x00, 0x00,
0x18, 0xf9, 0x08, 0xfc, 0x00, 0x00, 0x00, 0x00, 0xbf, 0xff, 0x01, 0x00, 0x00, 0x00, 0x00, 0x00,
0xdc, 0x00, 0x00, 0x01, 0x00, 0x00, 0x00, 0x00, 0xdc, 0x00, 0xff, 0x00, 0x00, 0x00, 0x00, 0x00,
0xde, 0xff, 0xfe, 0x02, 0x00, 0x00, 0x00, 0x00, 0xdb, 0xff, 0x01, 0x00, 0x00, 0x00, 0x00, 0x00,
0xf6, 0xff, 0xfd, 0x03, 0x00, 0x00, 0x00, 0x00, 0xe8, 0xfb, 0xfa, 0x09, 0x00, 0x00, 0x00, 0x00,
0x95, 0xfd, 0x03, 0xfe, 0x00, 0x00, 0x00, 0x00, 0x92, 0xfd, 0xfe, 0x03, 0x00, 0x00, 0x00, 0x00,
0x17, 0x00, 0x00, 0x00, 0x00, 0x00, 0x00, 0x00, 0xf0, 0xfe, 0xf7, 0x0b, 0x00, 0x00, 0x00, 0x00,
0xd2, 0xfe, 0x00, 0x02, 0x00, 0x00, 0x00, 0x00, 0xd9, 0xfc, 0xfd, 0x06, 0x00, 0x00, 0x00, 0x00,
0xef, 0xff, 0x03, 0xfe, 0x00, 0x00, 0x00, 0x00, 0xf1, 0xff, 0x00, 0x01, 0x00, 0x00, 0x00, 0x00,
0xc2, 0xd0, 0x06, 0x03, 0x00, 0x00, 0x00, 0x00, 0xbc, 0xe3, 0x06, 0x02, 0x00, 0x00, 0x00, 0x00
};
